00DA
00CD
00DB
00D0
00D8
00D2
00DA
00D9
00D9
00DD
00D3
00DC
00D7
00CF
00D3
00E8
00DC
00D6
00D2
00DC
00D6
00D7
00D3
00D4
00D3
00D8
00D9
00CD
00D8
00D5
00E1
00CD
00D7
00DB
00D9
00D6
00DD
00D4
00D2
00D5
00D6
00D5
00D1
00E0
00D6
00D7
0120
00D9
00CF
00D4
00E4
00D7
00DC
00DB
00D9
00DC
00D1
00D9
00CE
00D4
00D7
00DD
00D5
00DC
00DD
00E1
00D6
00D1
00E4
00E3
00D1
00D4
00D8
00D8
00D3
00E1
00DB
00DD
00D4
00D7
00D6
00D4
00DC
00D7
00D1
00D2
00D6
00D1
00CF
00E6
00E0
00D6
00DB
00D8
00D9
00DA
00DA
00DE
00DD
00DE
00D5
00DE
00D4
00D9
00DC
00D3
00D1
00D6
00D7
00F7
00DF
00D6
00D2
00D1
00D3
00D2
00D9
00D3
00D8
00D0
00DB
00E6
00D2
014A
00D4
00D4
00DE
00D9
00D6
00D8
00D9
00CF
00CD
00DA
00D9
00E1
00DA
00D9
00DE
00D6
00D6
00D4
0107
00EE
00E1
00D4
00DA
00E5
00D8
00D7
00D5
00DF
00DF
00D8
00CE
00D6
00DB
00D5
00D2
00CC
00D5
00D4
00D1
00D6
00DD
00DB
00D8
00E4
00DB
00DC
00D1
00DC
00D4
00D8
00DA
00D7
00D8
00D8
00D3
00DC
012F
00DA
00D3
00D8
00D9
00D4
00DE
00D7
00D2
00D8
00DC
00DA
00D9
00DC
00D7
00DD
00DA
00DC
00DD
00D5
00DC
00CD
00D5
00DB
00DD
014B
00CF
00D1
00DB
00E0
00D4
00D2
00D8
00DF
00D7
00D5
00D8
00D6
00D3
00D7
00DC
00D7
00D3
00D8
00D2
0119
00D4
00DB
00D3
0118
00DC
00D9
00DC
00D8
00D8
00DC
00D4
00D0
00DD
00DA
00D6
00D7
00D9
00E9
00DD
00D1
00D2
00D8
00D8
00CD
00DA
00DA
00CE
00D6
00D7
00D5
00D0
00D6
00D6
00D8
00DB
00D4
00D7
00DD
00D9
00DD
00E2
00D9
00DF
00E1
00DB
00D9
00DA
00F4
00DA
00DA
00DA
00D7
00D6
00D5
00D2
00DE
00D5
00D4
00DD
00DA
00DB
00F0
00D6
00D6
00D0
00D8
00D2
00DD
00DC
00DA
00D3
00D1
00D8
00D6
00D4
00D6
00DB
00D1
00C5
00D4
00D8
00D4
019C
00D4
00DF
00DF
00DB
00D6
00D5
00CC
00C8
00D2
00DF
00D6
00DC
00D9
00D9
00DD
00DC
00D5
00D3
00F1
00D7
00D4
00D9
00DC
00D1
00DC
00EF
00DD
00DB
00D4
00DC
00DD
00D4
00BA
00D9
00D2
00D8
00DC
00DA
00DC
00CD
00DF
00D7
00D5
00E7
00D5
00DB
00DD
00D9
00DB
00D4
00CF
00F1
00DA
00D9
00D8
00D9
00D2
00DD
00E4
00DC
00D2
00E3
00DA
00D6
00D9
00F0
00DB
00D8
00D5
00D6
00DA
00D9
00B3
00DC
00DE
00E6
00DA
00DC
00DB
00DB
00E1
00D6
00D6
00D2
00DC
00D4
00C9
00D7
00DC
00D4
00D9
00D6
00D7
00DC
00D4
00D6
00E1
00D0
00D6
00DC
00DB
00D9
00DB
00DE
00D2
00D9
00D6
00D5
00DA
00DA
00DB
00D5
00D8
00E5
00D4
00D8
00DC
00D6
00CC
00CE
00D9
00DF
00E1
00DB
00DB
00D6
00CE
00D8
00D3
00D1
00D9
00DB
00DF
00D8
00D5
00D0
00E7
00D3
00D9
00DD
00D4
00D4
00E1
00E5
00DA
00D5
00D6
00D3
00D5
00DE
00D8
00DA
00CE
00D5
00DE
00E2
00D2
00DF
00E2
00D0
00DC
0110
00CF
00DE
00DA
00D2
00D7
00D2
00D0
00DE
00DD
00DA
00D9
00D1
00D5
00D6
00DA
00E0
00E3
00D5
00D7
00D7
00DB
00DD
00D5
00DA
00D5
00D5
00D7
00DA
00D6
00E5
00E2
00D6
00DE
00D8
00E3
00D4
00D3
00DA
00DE
00DB
00D1
00E0
00D4
00E7
00DC
00DA
00D1
00D8
00CE
00DF
00D9
00D8
00DA
00D8
00D6
0115
00D4
00DC
00D4
00D6
00D3
00DA
00DC
00DD
00F1
00D7
00D6
00D7
00B5
00D6
00D6
00E3
00DE
00E1
00DD
00D9
00D4
00DC
00D9
00CF
00DD
00DD
00D9
00D3
00DB
00C7
00DF
00DC
00DB
00D7
00D4
00D1
00DA
00D6
00DB
00D7
00DE
00CE
00DC
00D8
00CF
00DA
00D7
00D3
00D5
00D2
00DC
00DA
00DB
00D4
00DE
00D8
00DC
00D5
00D8
00E0
00D2
00E6
00CD
00D1
00D0
00D8
00DE
00D8
00D5
00DA
00D7
00DC
00D3
00D2
00D7
00D4
00DF
00D3
00DE
00D9
00D9
00E2
00D2
00D7
00D8
00DB
00D8
00D5
00D6
00D7
00DA
00DA
00DE
00E4
00D7
00D7
00D8
00D9
00D5
00DB
00D7
00D3
00D6
00DB
00D5
00DE
00DA
00D7
00D7
00D9
00D8
00D7
00DC
00D6
00E0
00D9
00D9
00D5
00E3
00D8
00E6
00E0
00E3
00D8
00DC
00D8
00D0
00D9
00DD
00DD
00E1
00D9
00DC
00D8
00DC
00D2
00E0
00DB
00D7
00D9
00F2
00DC
00DC
00EB
00D4
00D7
00D8
00DA
00DF
00D4
00D3
00D0
00D8
00D9
00D8
00D2
00E3
00D5
00E0
00D4
00D9
00DD
00DE
00D7
00D7
00D6
00D6
00D5
00D6
00DC
00D7
00D7
00DC
00DC
00DC
00E0
00D5
00DB
00D3
00DB
00E2
00D9
00DA
00D2
00D1
00DE
00DE
00D9
00DE
00E4
00D4
00D6
00D9
0189
00DA
00DB
00DB
00D7
00D7
00D7
00E2
00DE
00D9
00D1
00D6
00DA
00A8
00DB
00DA
00DA
00DB
00D4
00D8
00DB
00D9
00D8
00DE
00DD
00D8
00D4
00D6
00D8
00DB
00E7
00CF
0110
00DB
00D6
00D6
00F8
00D0
00DD
00DC
00CC
00C8
00D4
00D8
00DA
00D5
00D6
00D7
