FFBF
006A
014B
0034
0145
FF4C
0016
0104
00A6
004B
FF86
FE98
FEFF
FFEB
0081
0048
0050
0074
002F
FFFB
FF1A
FFB0
FFD5
0078
0036
FFC9
0040
FFE6
0020
0045
005E
0041
FE57
FFB7
FF7A
FFFD
FFF9
0027
FEE2
FFF1
FF67
FEE3
000D
00FC
FF62
FF2C
FFF8
FFB6
0049
008C
00C9
FFEC
FFF1
FF76
0013
FFF7
FF02
FE97
FF94
FF4A
FFF4
0063
FFB5
FF8A
005A
FF69
000F
0056
FEFA
00C3
FFD0
0102
0121
00C2
000E
0025
FF61
01C3
FF7A
FFBB
000A
0131
FFF2
0100
FF8D
0073
00B0
0024
FF15
00F9
0056
FFB5
FF66
009D
FFD2
FF7A
FFF4
0019
FEC2
003C
00D5
00D1
0048
00CE
FFF7
FF56
0046
FFB1
FFB0
0097
FFC7
0008
FFDB
0039
0014
0033
FF72
FF3F
0061
FFA2
FF64
FFC3
005B
0046
00D1
0065
FFAE
FF89
FFE2
00EB
FFBD
FFCD
00AA
005D
FFDE
00CD
FF26
FF40
FF83
00BC
FFF5
FE75
009D
0057
FF9A
FFE9
0044
FF0F
FFDF
0059
FF82
FF73
FEE4
00CA
FEF7
FEDD
0037
005B
0004
0040
FFC7
00F2
FF5D
001B
FF9F
0079
0071
00EC
FFE9
FF7B
007E
FED9
0055
0150
0061
0075
FFFD
FF95
0010
0115
FE9E
FFEA
FFED
0010
006F
FF48
00D6
FFDE
FF42
FEF3
FF3F
FF46
00D4
FF4B
00A7
FF77
010D
0041
00FA
FFE7
FFED
FF3B
0018
FFA6
0022
FFB2
FFE2
FFD2
FF7F
FFCF
012A
FFF8
0080
0078
00A3
FEF9
001C
0109
FEF0
FFC5
012B
FF6F
FEA4
01B7
0052
0230
FF67
FFC7
0010
0172
FF11
FE7F
008B
FF5F
FF6E
FFCF
FF9A
FF38
FEE1
FFCB
FFE9
0062
FF6E
FFC0
0090
FFCB
0090
0028
FF07
FF63
FF6B
00DE
0097
FFF3
FF5B
FFAD
FFF4
0089
FF34
FFA4
007D
FECB
007D
00AA
0020
FF75
00AE
0054
0077
FF0E
0021
FF16
FF1D
02B6
0001
FF90
00A8
FF1B
0024
FF5C
00B4
007C
0025
00B2
013F
FFC4
FEDD
0003
FFD2
FF8F
0074
0102
00CF
0054
FF22
FFA5
00DC
FF54
FF90
0036
FE25
FF01
0094
0097
0092
FFE6
00ED
0039
E445
FF4E
001C
001D
FFC3
0033
FEF8
0066
00BC
005F
FE42
FF7B
0104
003D
FFC9
FFBD
FFF7
002B
FFEF
002B
FFF4
FFBD
FF7B
FFD4
007E
0069
FF9E
00AD
FFD6
FF71
FFC4
FECF
0073
FF0B
FF0A
FFB2
FFC7
0038
0069
FFA8
FFD1
FF2E
FEDA
FF4B
00E8
0031
FF77
00AE
004F
FF98
FFC8
FFAD
0007
FFC7
0026
0070
0087
0046
FF68
0044
FFF9
FEBC
FECF
FFBC
0025
FEAB
0024
FFB4
FF63
004C
FFEE
FFCF
0016
FFCE
FFDE
0006
0177
0051
00CE
FF88
FFB3
FF8B
0015
FF83
FFB4
0055
00B7
00CD
FFC0
0006
0090
008E
017B
0054
FFE7
FF56
00A8
013C
FEB2
FF3E
0061
0056
FF94
00D6
FFE2
FFC8
FFE4
0064
FFEA
FFE2
0033
0039
FFDB
FFED
0015
FF65
006B
0089
0022
00DD
0018
FFD3
FFB7
00EF
FF02
FF57
FF73
FF1D
00BB
FF3B
0092
FFB8
FFA2
00C0
FFE1
FF98
008F
FE00
FF83
FFEE
009C
009F
006E
FEC9
00BA
00A6
0033
00EC
FF86
00AA
FEF1
FFD5
FFA6
009C
0000
01C0
000E
0033
00A2
FE77
0072
003B
016D
0038
FFAC
FFB7
FEF8
0076
FFD2
007B
009C
FFF0
FFF2
FE64
FF7B
009F
003B
FEE1
FEFD
0084
FFD6
004E
FEF4
FFFC
0131
0039
01C7
00E2
0128
FEF9
FFD7
0047
FEFF
FF5F
FFB0
FFAA
00F8
006C
FFF6
FF8A
00B8
0011
003B
00D9
FFF3
0039
FF7E
0043
FEBF
FF87
0027
FFDE
007A
0058
0108
FFC0
FF83
FFAA
FF4B
0025
FF33
FF97
018A
FF44
FFAF
FF73
FF94
0157
FF5D
FFF3
0095
FF70
018A
012F
FF58
0060
FF51
FFAE
0182
FFFA
FF36
FFC9
FF64
FEEE
00B1
FFC1
FFFA
00DE
FFF5
0293
FF61
0017
00A0
FF51
00B0
FF91
0014
0006
FFB3
0032
FF9A
FE88
FF8E
009F
008D
0054
FF47
FEC7
00F0
FF8F
FFAF
FFF0
0017
FF5C
FF7F
0024
FFDD
FF4D
FEE4
FFF8
0054
FFB4
FFD3
0017
0016
FF19
FFE3
FF75
FFF4
0029
FFA9
005D
FEEE
00AA
0036
0064
00FD
006C
FFF4
0076
0047
004B
019A
0008
FF9D
0187
0029
0006
FF81
001C
FF7C
FF98
FFBE
FF37
FFB4
0013
FE49
FFD0
0043
FFF4
006C
FF73
00E5
00A6
FFF0
0046
000A
FF4E
0049
0103
FFAB
FFF2
FF1C
004E
002E
0000
FFEE
00D2
0061
00D0
FFE4
FFAB
003B
00E8
008C
FFD4
010E
00F4
00AF
01CB
FF71
FFB6
0029
FF48
008D
003C
00EF
014A
00D2
0292
00AD
00D1
0072
FF71
FF88
0063
006A
FF68
0098
0038
0081
0076
FFC7
001B
FFF2
0111
FFEB
FFE6
FFE3
003D
FF8E
0147
0008
0062
00DD
0048
FF58
0095
006E
0092
FF7E
FF6D
00FC
FF90
FFDA
008C
0128
00DB
014D
0003
FFD7
FED9
0117
00B4
FF34
FF83
0019
0047
003D
FF84
FFD8
0133
000C
0094
FF7D
0002
FFE8
0010
0034
FF37
FF31
0093
0020
0042
004A
FFE9
0032
FFFC
0070
0064
FF8E
FF74
0122
0053
0036
005B
008B
FEF3
FFC4
005C
0069
00CD
FF87
FFCD
FFF5
00C8
FF48
FFFA
FF2E
0080
FF62
00F0
009B
FFE3
FFF4
FEC0
FFD5
FFB2
0097
FF5D
